// Dense Layer Weights for Class 1 (8-bit signed hex)
c9
23
42
18
2c
65
44
54
e8
c0
c1
b1
09
b5
4c
55
64
53
43
30
fd
dc
de
d9
bf
fa
c9
33
35
59
07
0d
e8
37
29
ec
df
06
fd
db
b3
30
51
47
24
2e
e9
0e
c4
c1
f8
e2
ff
ff
15
52
59
3c
d7
ed
e2
e4
0d
26
df
f0
26
f9
0d
ec
66
25
42
0d
2b
3b
13
fb
d8
07
2a
02
05
54
0f
51
22
58
12
be
10
29
08
be
03
f8
fb
41
34
4d
04
f2
eb
ae
dc
09
d5
13
2c
02
f4
1a
00
dd
0f
e7
9d
cb
d8
20
f1
c3
d0
2f
f9
25
ed
34
f8
be
1a
1c
1a
28
fa
c6
e9
1e
cc
dd
f8
af
18
c8
a8
f6
b7
e7
1b
08
04
43
16
d4
df
c1
dc
df
e0
c6
e0
ed
0f
28
e3
0d
e1
c1
cc
