// Dense Layer Weights for Class 0 (8-bit signed hex)
44
1c
cc
9c
b3
b4
d3
bc
b7
28
30
24
24
fc
d4
f8
d5
81
e2
00
dc
32
51
23
3c
f5
39
d4
b0
dd
ee
9a
11
d9
07
35
37
ff
08
18
2d
f5
c3
e1
c4
f2
e6
3d
2f
2a
09
32
4b
ce
f9
de
f0
da
db
c6
11
32
15
3e
07
47
f5
30
ed
de
ca
d4
b9
01
ff
d7
16
dc
5c
21
de
dd
cd
c6
d5
b0
f8
d5
21
4d
20
17
e9
22
07
03
d2
de
e1
d1
fb
fd
5f
0c
6e
45
f2
2a
15
1c
ee
d9
d8
be
d1
12
41
ef
32
40
26
09
3f
0a
20
1d
1e
1b
00
24
12
ed
10
d3
37
01
21
0c
ee
1f
25
49
31
ff
59
25
12
10
17
c0
3a
c7
27
18
40
6d
f6
26
0c
1d
27
09
f2
09
3d
0e
30
0b
47
